unsigned int model1_len = 6688;

alignas(8) const unsigned char model1[] = {
     0x1c, 0x00, 0x00, 0x00, 0x54, 0x46, 0x4c, 0x33, 0x14, 0x00, 0x20, 0x00,
     0x1c, 0x00, 0x18, 0x00, 0x14, 0x00, 0x10, 0x00, 0x0c, 0x00, 0x00, 0x00,
     0x08, 0x00, 0x04, 0x00, 0x14, 0x00, 0x00, 0x00, 0x1c, 0x00, 0x00, 0x00,
     0x98, 0x00, 0x00, 0x00, 0xf0, 0x00, 0x00, 0x00, 0x24, 0x14, 0x00, 0x00,
     0x34, 0x14, 0x00, 0x00, 0xcc, 0x19, 0x00, 0x00, 0x03, 0x00, 0x00, 0x00,
     0x01, 0x00, 0x00, 0x00, 0x10, 0x00, 0x00, 0x00, 0x00, 0x00, 0x0a, 0x00,
     0x10, 0x00, 0x0c, 0x00, 0x08, 0x00, 0x04, 0x00, 0x0a, 0x00, 0x00, 0x00,
     0x0c, 0x00, 0x00, 0x00, 0x1c, 0x00, 0x00, 0x00, 0x3c, 0x00, 0x00, 0x00,
     0x0f, 0x00, 0x00, 0x00, 0x73, 0x65, 0x72, 0x76, 0x69, 0x6e, 0x67, 0x5f,
     0x64, 0x65, 0x66, 0x61, 0x75, 0x6c, 0x74, 0x00, 0x01, 0x00, 0x00, 0x00,
     0x04, 0x00, 0x00, 0x00, 0x90, 0xff, 0xff, 0xff, 0x0b, 0x00, 0x00, 0x00,
     0x04, 0x00, 0x00, 0x00, 0x08, 0x00, 0x00, 0x00, 0x6f, 0x75, 0x74, 0x70,
     0x75, 0x74, 0x5f, 0x30, 0x00, 0x00, 0x00, 0x00, 0x01, 0x00, 0x00, 0x00,
     0x04, 0x00, 0x00, 0x00, 0xea, 0xec, 0xff, 0xff, 0x04, 0x00, 0x00, 0x00,
     0x0c, 0x00, 0x00, 0x00, 0x6b, 0x65, 0x72, 0x61, 0x73, 0x5f, 0x74, 0x65,
     0x6e, 0x73, 0x6f, 0x72, 0x00, 0x00, 0x00, 0x00, 0x02, 0x00, 0x00, 0x00,
     0x34, 0x00, 0x00, 0x00, 0x04, 0x00, 0x00, 0x00, 0xdc, 0xff, 0xff, 0xff,
     0x0e, 0x00, 0x00, 0x00, 0x04, 0x00, 0x00, 0x00, 0x13, 0x00, 0x00, 0x00,
     0x43, 0x4f, 0x4e, 0x56, 0x45, 0x52, 0x53, 0x49, 0x4f, 0x4e, 0x5f, 0x4d,
     0x45, 0x54, 0x41, 0x44, 0x41, 0x54, 0x41, 0x00, 0x08, 0x00, 0x0c, 0x00,
     0x08, 0x00, 0x04, 0x00, 0x08, 0x00, 0x00, 0x00, 0x0d, 0x00, 0x00, 0x00,
     0x04, 0x00, 0x00, 0x00, 0x13, 0x00, 0x00, 0x00, 0x6d, 0x69, 0x6e, 0x5f,
     0x72, 0x75, 0x6e, 0x74, 0x69, 0x6d, 0x65, 0x5f, 0x76, 0x65, 0x72, 0x73,
     0x69, 0x6f, 0x6e, 0x00, 0x0f, 0x00, 0x00, 0x00, 0x30, 0x13, 0x00, 0x00,
     0x28, 0x13, 0x00, 0x00, 0x98, 0x12, 0x00, 0x00, 0x00, 0x12, 0x00, 0x00,
     0xf0, 0x01, 0x00, 0x00, 0x60, 0x01, 0x00, 0x00, 0x4c, 0x01, 0x00, 0x00,
     0xbc, 0x00, 0x00, 0x00, 0xa8, 0x00, 0x00, 0x00, 0xa0, 0x00, 0x00, 0x00,
     0x98, 0x00, 0x00, 0x00, 0x90, 0x00, 0x00, 0x00, 0x88, 0x00, 0x00, 0x00,
     0x68, 0x00, 0x00, 0x00, 0x04, 0x00, 0x00, 0x00, 0xa2, 0xed, 0xff, 0xff,
     0x04, 0x00, 0x00, 0x00, 0x54, 0x00, 0x00, 0x00, 0x0c, 0x00, 0x00, 0x00,
     0x08, 0x00, 0x0e, 0x00, 0x08, 0x00, 0x04, 0x00, 0x08, 0x00, 0x00, 0x00,
     0x10, 0x00, 0x00, 0x00, 0x24, 0x00, 0x00, 0x00, 0x00, 0x00, 0x06, 0x00,
     0x08, 0x00, 0x04, 0x00, 0x06, 0x00, 0x00, 0x00, 0x04, 0x00, 0x00, 0x00,
     0x00, 0x00, 0x00, 0x00, 0x00, 0x00, 0x0a, 0x00, 0x10, 0x00, 0x0c, 0x00,
     0x08, 0x00, 0x04, 0x00, 0x0a, 0x00, 0x00, 0x00, 0x01, 0x00, 0x00, 0x00,
     0x02, 0x00, 0x00, 0x00, 0x04, 0x00, 0x00, 0x00, 0x06, 0x00, 0x00, 0x00,
     0x32, 0x2e, 0x31, 0x36, 0x2e, 0x31, 0x00, 0x00, 0x02, 0xee, 0xff, 0xff,
     0x04, 0x00, 0x00, 0x00, 0x10, 0x00, 0x00, 0x00, 0x31, 0x2e, 0x35, 0x2e,
     0x30, 0x00, 0x00, 0x00, 0x00, 0x00, 0x00, 0x00, 0x00, 0x00, 0x00, 0x00,
     0x0c, 0xe8, 0xff, 0xff, 0x10, 0xe8, 0xff, 0xff, 0x14, 0xe8, 0xff, 0xff,
     0x18, 0xe8, 0xff, 0xff, 0x2e, 0xee, 0xff, 0xff, 0x04, 0x00, 0x00, 0x00,
     0x04, 0x00, 0x00, 0x00, 0xf2, 0x9a, 0xb6, 0x3f, 0x3e, 0xee, 0xff, 0xff,
     0x04, 0x00, 0x00, 0x00, 0x80, 0x00, 0x00, 0x00, 0x1e, 0x8f, 0x5b, 0x3e,
     0x81, 0xb7, 0xcc, 0xbd, 0xbd, 0x3e, 0x22, 0x3e, 0x99, 0x26, 0x56, 0x3e,
     0x07, 0x26, 0x2c, 0x3e, 0x2c, 0x6e, 0x7f, 0x3d, 0x18, 0xb7, 0x28, 0x3e,
     0x00, 0x00, 0x00, 0x00, 0x83, 0x5d, 0x6a, 0x3e, 0x09, 0x14, 0x65, 0x3d,
     0x46, 0x0c, 0xe4, 0xbd, 0x9e, 0xcb, 0xed, 0xbd, 0xaa, 0x2f, 0x22, 0x3e,
     0x51, 0xcf, 0x88, 0xbd, 0xdb, 0x4f, 0x54, 0x3e, 0x1e, 0xcd, 0x39, 0x3e,
     0x75, 0xbb, 0x40, 0xbe, 0x7b, 0x6d, 0x59, 0x3e, 0x9e, 0xe1, 0x1e, 0x3e,
     0x1a, 0xb7, 0x15, 0xbe, 0x33, 0x29, 0x0b, 0xbe, 0xc4, 0x1e, 0x53, 0xbc,
     0x00, 0x00, 0x00, 0x00, 0x66, 0x64, 0x56, 0x3e, 0x47, 0x1f, 0x30, 0x3e,
     0xa7, 0x13, 0x84, 0xbd, 0xb3, 0xb7, 0x23, 0x3e, 0xd4, 0xa5, 0x78, 0x3e,
     0x2a, 0xbd, 0xb8, 0xbd, 0x09, 0x42, 0x01, 0xbe, 0x81, 0xc8, 0x5e, 0x3e,
     0xdc, 0x8e, 0xa3, 0xbc, 0xca, 0xee, 0xff, 0xff, 0x04, 0x00, 0x00, 0x00,
     0x04, 0x00, 0x00, 0x00, 0x6c, 0x06, 0x27, 0xbe, 0xda, 0xee, 0xff, 0xff,
     0x04, 0x00, 0x00, 0x00, 0x80, 0x00, 0x00, 0x00, 0x75, 0x14, 0x70, 0xbd,
     0x32, 0x28, 0x1a, 0xbe, 0xd0, 0x0a, 0xd7, 0xbd, 0x12, 0x80, 0x96, 0xbe,
     0x60, 0x04, 0x76, 0xbd, 0xa7, 0xcb, 0x5a, 0xbe, 0xb8, 0x4e, 0x6f, 0x3e,
     0x55, 0xad, 0x11, 0x3e, 0x03, 0x56, 0x31, 0x3d, 0xc8, 0x2b, 0x3c, 0x3d,
     0x02, 0x2b, 0xbb, 0xbe, 0x27, 0xa7, 0xdb, 0x3d, 0xe5, 0xf6, 0xf3, 0xbc,
     0x90, 0x9b, 0xb9, 0xbe, 0x80, 0x07, 0xeb, 0xbd, 0x21, 0x20, 0xd3, 0xbe,
     0xd1, 0xf7, 0xa7, 0xbe, 0x27, 0xc6, 0x7a, 0x3d, 0x0a, 0xcc, 0x17, 0xbe,
     0x23, 0x3a, 0x05, 0xbe, 0x54, 0xb0, 0x44, 0xbe, 0x68, 0xd3, 0xdf, 0x3d,
     0xbf, 0xa0, 0x4c, 0x3e, 0x10, 0x54, 0xd9, 0xbe, 0xf0, 0x19, 0x96, 0xbe,
     0xdc, 0x07, 0x0f, 0x3e, 0x8b, 0x1b, 0xb2, 0x3d, 0x7c, 0x31, 0xdd, 0x3d,
     0x1f, 0x22, 0x54, 0x3e, 0xf1, 0xd9, 0x87, 0xbe, 0x19, 0x69, 0xd5, 0xbd,
     0x33, 0xdf, 0x85, 0x3b, 0x66, 0xef, 0xff, 0xff, 0x04, 0x00, 0x00, 0x00,
     0x00, 0x10, 0x00, 0x00, 0xc1, 0x0d, 0xb6, 0x3e, 0x5c, 0x34, 0xb8, 0xbd,
     0xfd, 0x81, 0x57, 0x3e, 0x4e, 0x59, 0x9b, 0xbe, 0x57, 0x3b, 0x9a, 0xbd,
     0xa4, 0xe0, 0x17, 0xbd, 0x9c, 0x96, 0xb4, 0xbe, 0x3c, 0xcf, 0x8c, 0xbe,
     0x2e, 0x8f, 0xa5, 0x3d, 0x8c, 0x3c, 0xa0, 0xbe, 0x6d, 0xaf, 0xe1, 0x3d,
     0x93, 0x5d, 0x84, 0xbd, 0x42, 0x87, 0xa7, 0xbd, 0x97, 0x45, 0x2c, 0x3e,
     0x0d, 0x33, 0x12, 0x3f, 0x98, 0x3d, 0xb3, 0xbd, 0x40, 0x75, 0x3f, 0x3e,
     0x89, 0x19, 0xb7, 0xbe, 0x3e, 0x05, 0x59, 0x3e, 0x24, 0xc3, 0xed, 0x3e,
     0x4b, 0x4f, 0x05, 0x3c, 0x39, 0x1d, 0x5d, 0xbe, 0x9e, 0xc4, 0xd1, 0xbe,
     0x5a, 0x4d, 0xab, 0xbe, 0x78, 0xcb, 0x82, 0xbe, 0x0a, 0x8c, 0x36, 0x3e,
     0x53, 0xd6, 0x3a, 0x3e, 0xe2, 0x62, 0xe9, 0xbd, 0x27, 0xf2, 0x5c, 0x3d,
     0xea, 0xa1, 0xcb, 0xbd, 0xc6, 0x7c, 0xb5, 0x3e, 0x4c, 0x84, 0x04, 0xbd,
     0xec, 0x36, 0x0c, 0x3f, 0x7e, 0xfc, 0xd4, 0xbf, 0x0a, 0x35, 0x5f, 0x3e,
     0x5d, 0x3c, 0x00, 0xbe, 0xcb, 0x97, 0x60, 0x3f, 0xba, 0x53, 0x78, 0xbe,
     0xd7, 0x36, 0x2b, 0xbe, 0x2c, 0x62, 0xc2, 0xbb, 0xbf, 0x9a, 0x9b, 0x3e,
     0xf3, 0x69, 0x14, 0x3f, 0x85, 0x07, 0x98, 0xbd, 0x38, 0x09, 0xfc, 0xbd,
     0x78, 0xab, 0x97, 0xbe, 0x46, 0x58, 0x45, 0x3d, 0xc3, 0xed, 0x41, 0x3e,
     0x8c, 0xd8, 0x84, 0x3e, 0x27, 0x32, 0x22, 0x3e, 0x0c, 0xf9, 0x52, 0x3f,
     0x3e, 0x9d, 0x59, 0xbd, 0x29, 0xd0, 0x08, 0x3e, 0xef, 0xb3, 0x02, 0x3e,
     0xbe, 0xef, 0xe4, 0xbd, 0xa7, 0x45, 0x7b, 0x3e, 0x35, 0xd4, 0x77, 0x3d,
     0xf2, 0x9c, 0xb9, 0x3d, 0x14, 0x8f, 0x8c, 0x3e, 0x16, 0x82, 0x17, 0x3d,
     0xc9, 0x3f, 0x88, 0xbd, 0x49, 0xf4, 0x9b, 0x3e, 0x0f, 0xf5, 0xa5, 0xbe,
     0x5d, 0xf4, 0x20, 0x3e, 0xac, 0x03, 0x03, 0xbe, 0x33, 0x39, 0xbb, 0xbe,
     0x75, 0x84, 0xa1, 0x3f, 0x48, 0xb6, 0xeb, 0xbe, 0x6d, 0x9c, 0x6e, 0x3e,
     0xa3, 0x42, 0x0e, 0xbf, 0x71, 0x22, 0xce, 0x3d, 0x5c, 0xdd, 0x3f, 0x3e,
     0x1d, 0x21, 0x46, 0xbe, 0x3f, 0x4a, 0x74, 0x3e, 0x9e, 0xc0, 0x4b, 0xbf,
     0xe3, 0x37, 0x34, 0x3e, 0x69, 0xcf, 0x37, 0xbe, 0xa9, 0x18, 0x5b, 0x3e,
     0x2f, 0xfa, 0x5c, 0xbe, 0x0c, 0x89, 0x07, 0xbf, 0x50, 0x52, 0xbe, 0x3e,
     0x48, 0xfb, 0x91, 0x3e, 0x98, 0x99, 0x80, 0xbf, 0xff, 0x51, 0x86, 0xbd,
     0xe7, 0x94, 0x9a, 0xbd, 0x14, 0x01, 0x52, 0xbe, 0x8f, 0x73, 0xc3, 0xbd,
     0x1d, 0xe3, 0x9f, 0x3c, 0xab, 0xd0, 0xd6, 0xbd, 0x03, 0x81, 0x06, 0x3c,
     0xac, 0xef, 0x63, 0x3c, 0x28, 0xd6, 0x42, 0x3e, 0xe7, 0x50, 0xc1, 0xbd,
     0xe3, 0xb4, 0x60, 0x3e, 0x61, 0x9c, 0xc9, 0x3e, 0x0e, 0xe8, 0x5f, 0xbd,
     0x5c, 0x61, 0xd8, 0xbd, 0xe5, 0x72, 0xaa, 0x3e, 0x6d, 0x21, 0xcb, 0xbd,
     0xbb, 0x7f, 0x7d, 0x3e, 0x0c, 0x6b, 0x9c, 0xbd, 0x99, 0x78, 0xde, 0x3d,
     0xc8, 0x6e, 0xa6, 0xbe, 0xe4, 0x04, 0x8d, 0xbe, 0xbf, 0xa9, 0xba, 0xbc,
     0x76, 0xa5, 0x5c, 0x3e, 0x51, 0x27, 0x0f, 0x3e, 0x99, 0x6c, 0x67, 0xbe,
     0x8c, 0x51, 0x12, 0xbf, 0x3c, 0x47, 0x58, 0xbb, 0x1a, 0x7f, 0x4d, 0xbe,
     0x1f, 0xb1, 0xfc, 0x3e, 0x5b, 0x53, 0x29, 0x3e, 0x7e, 0x84, 0x98, 0x3c,
     0x94, 0xb8, 0x39, 0xbe, 0xf6, 0x00, 0xbb, 0x3d, 0x21, 0x0e, 0xd7, 0x3e,
     0x23, 0xc8, 0x30, 0x3e, 0x03, 0x13, 0x4a, 0xbe, 0x1c, 0x0f, 0xaf, 0xbe,
     0xe0, 0x1e, 0xae, 0xbe, 0x82, 0xe7, 0xb9, 0x3d, 0x1b, 0xe4, 0x67, 0x3e,
     0x3a, 0x7a, 0x5e, 0xbe, 0x6d, 0xef, 0x13, 0xbe, 0x39, 0x21, 0xd0, 0xbe,
     0xb8, 0xbd, 0x40, 0xbe, 0xb5, 0x77, 0x1c, 0x3c, 0x9e, 0xb3, 0xa3, 0x3e,
     0x4d, 0xfd, 0xb8, 0x3d, 0x64, 0x8d, 0x08, 0x3e, 0x28, 0x14, 0xc8, 0x3e,
     0x6f, 0x42, 0xac, 0xbd, 0x79, 0x8e, 0xd3, 0x3d, 0x5b, 0x26, 0x01, 0x3e,
     0x38, 0xdd, 0x96, 0xbe, 0x9a, 0x05, 0x56, 0xbe, 0x12, 0xc2, 0xe0, 0xbb,
     0x01, 0xbc, 0x84, 0xbe, 0x45, 0x6b, 0xaa, 0xbe, 0xa9, 0x72, 0x1b, 0xbf,
     0xc2, 0x77, 0x0b, 0x3e, 0x2f, 0x49, 0xc6, 0xbd, 0x17, 0xa6, 0x01, 0x3f,
     0x24, 0x11, 0x17, 0x3e, 0x95, 0x22, 0x10, 0x3d, 0x34, 0x40, 0x45, 0xbd,
     0xe7, 0x07, 0x91, 0xbe, 0xb5, 0xa4, 0xb2, 0x3e, 0x33, 0x93, 0x69, 0xbe,
     0xd3, 0xf6, 0x98, 0xbe, 0x99, 0x62, 0xd1, 0xbe, 0x55, 0x07, 0x02, 0xbe,
     0x48, 0x30, 0x0c, 0x3d, 0xd6, 0xa0, 0xca, 0xbe, 0xda, 0x82, 0x4d, 0xbe,
     0x46, 0x74, 0x42, 0x3e, 0xd6, 0x86, 0xeb, 0xbe, 0x51, 0x27, 0xc5, 0xbe,
     0xf3, 0xdd, 0x17, 0xbc, 0xab, 0x9b, 0x53, 0xbe, 0x3e, 0x48, 0xfd, 0xbd,
     0xbd, 0x2f, 0xcf, 0x3c, 0x68, 0x89, 0x2e, 0x3e, 0x85, 0xba, 0xb5, 0x3e,
     0xe0, 0x91, 0x47, 0xbe, 0x16, 0xe1, 0x52, 0x3d, 0x3d, 0x49, 0x88, 0xbe,
     0x07, 0x01, 0x8c, 0x3e, 0x18, 0x29, 0x7c, 0xbd, 0x58, 0x01, 0x78, 0x3e,
     0x77, 0x2b, 0x93, 0x3d, 0x9c, 0x03, 0x60, 0x3e, 0x77, 0xe7, 0xa1, 0x3d,
     0x43, 0x33, 0x1e, 0x3e, 0x31, 0x68, 0xa4, 0x3d, 0xf7, 0xbb, 0xe4, 0xbd,
     0xb2, 0x7d, 0x94, 0x3e, 0x43, 0x3b, 0x6e, 0xbe, 0x5d, 0x96, 0xa3, 0x3b,
     0x09, 0x7f, 0x96, 0x3e, 0x22, 0xc3, 0x8c, 0x3d, 0xe0, 0x35, 0x9e, 0x3e,
     0x78, 0x21, 0x5e, 0xbe, 0xb8, 0xe2, 0x48, 0x3e, 0x25, 0xcc, 0x4a, 0x3e,
     0x11, 0x17, 0x9d, 0xbd, 0x8a, 0x16, 0x5d, 0xbe, 0x9a, 0xb7, 0x96, 0xbe,
     0x04, 0xc7, 0x75, 0xbe, 0x71, 0x12, 0xa4, 0x3e, 0x74, 0xc7, 0x97, 0x3d,
     0x0c, 0x92, 0x3c, 0xbe, 0x38, 0xca, 0x55, 0xbd, 0x10, 0x02, 0x4a, 0x3f,
     0xf9, 0x84, 0xe8, 0xbe, 0x8f, 0x4e, 0x4a, 0x3e, 0xeb, 0xea, 0x50, 0xbe,
     0x48, 0x9e, 0x75, 0x3d, 0xdf, 0xb2, 0x6d, 0x3e, 0xe8, 0xc7, 0x68, 0x3e,
     0x5c, 0xbb, 0xf8, 0x3d, 0x54, 0x28, 0x67, 0xbf, 0xe1, 0x70, 0x6a, 0xbe,
     0xce, 0x5e, 0x4c, 0xbe, 0x78, 0xae, 0x27, 0x3e, 0xad, 0x10, 0x5e, 0x3e,
     0x3a, 0x78, 0x94, 0xbe, 0x60, 0x7a, 0x3a, 0x3d, 0xef, 0xd1, 0xf3, 0x3d,
     0x6b, 0x48, 0x96, 0xbf, 0xe8, 0x7d, 0x83, 0xbd, 0x32, 0xf7, 0x60, 0xbe,
     0xb6, 0xad, 0x0e, 0x3e, 0x39, 0xb6, 0xe3, 0x3d, 0x89, 0xde, 0x53, 0x3e,
     0x88, 0xfa, 0x0f, 0xbe, 0xb9, 0x0e, 0x6d, 0xbe, 0x23, 0x5d, 0x18, 0xbe,
     0x44, 0x43, 0x6e, 0x3e, 0x24, 0x23, 0x10, 0x3e, 0xc7, 0xe0, 0x90, 0xbe,
     0x5e, 0xa5, 0x07, 0xbe, 0x4e, 0xec, 0xb4, 0xbe, 0xca, 0x0a, 0x21, 0x3c,
     0x04, 0x46, 0x4d, 0xbe, 0xc0, 0xec, 0x20, 0xbd, 0x12, 0x44, 0x5a, 0x3e,
     0x70, 0xc3, 0x0a, 0xbe, 0x90, 0xae, 0xe7, 0x3c, 0x73, 0x4b, 0x9a, 0xbe,
     0x78, 0x66, 0x45, 0x3e, 0x52, 0x27, 0x02, 0xbe, 0x0b, 0x19, 0x36, 0xbe,
     0xe5, 0x3b, 0x51, 0xbe, 0x1e, 0xa3, 0x1f, 0xbe, 0x6c, 0x59, 0x89, 0xbe,
     0x4a, 0xd8, 0x22, 0xbe, 0x10, 0x72, 0x3a, 0x3d, 0x02, 0x26, 0x10, 0x3e,
     0x40, 0x09, 0x99, 0xbb, 0x52, 0x6c, 0x41, 0xbe, 0xb5, 0xda, 0x83, 0xbe,
     0x52, 0xc7, 0x9d, 0xbd, 0x25, 0x26, 0x88, 0x3e, 0x66, 0xc1, 0x3b, 0xbe,
     0x6e, 0x3d, 0x72, 0xbe, 0x88, 0x6b, 0xd2, 0x3d, 0x40, 0x01, 0x59, 0xbc,
     0x06, 0x85, 0xd6, 0xbd, 0xf0, 0x7c, 0xa3, 0xbd, 0x6a, 0x41, 0x1e, 0xbe,
     0xba, 0x21, 0xf3, 0xbd, 0x83, 0x7d, 0x81, 0xbe, 0x06, 0xb9, 0x6f, 0xbe,
     0x10, 0x1c, 0x77, 0xbd, 0x36, 0x2d, 0x0f, 0x3e, 0x02, 0xae, 0x04, 0x3e,
     0xfe, 0xb6, 0x01, 0x3e, 0x1d, 0xe8, 0xf5, 0x3e, 0xc0, 0xc6, 0x29, 0x3e,
     0x68, 0x60, 0xc2, 0x3d, 0x53, 0xa1, 0xa7, 0xbe, 0x11, 0x7d, 0xcd, 0xbd,
     0xf4, 0x2e, 0xe2, 0xbe, 0xf0, 0x5f, 0x9f, 0x3d, 0x3b, 0x83, 0x62, 0x3e,
     0x30, 0xeb, 0xbe, 0x39, 0x97, 0x76, 0xc5, 0xbe, 0xae, 0x50, 0xb2, 0x3e,
     0x30, 0xc7, 0x41, 0xbe, 0x3b, 0x88, 0xd1, 0xbb, 0x8b, 0xc6, 0xb0, 0xbd,
     0xc8, 0x7e, 0xb4, 0x3d, 0xe6, 0xe8, 0xb1, 0xbd, 0x5c, 0x9d, 0xbc, 0xbd,
     0x32, 0xfd, 0x7e, 0x3d, 0xfb, 0x44, 0x88, 0xbc, 0x4e, 0x16, 0x5e, 0xbe,
     0xa4, 0xda, 0x67, 0xbe, 0x22, 0x17, 0xdd, 0x3d, 0xc7, 0xf3, 0x17, 0xbd,
     0xa4, 0xb4, 0x0a, 0x3e, 0xb9, 0x57, 0x99, 0xbe, 0xe3, 0x78, 0x8e, 0xbe,
     0x4c, 0xd9, 0xef, 0xbe, 0x7b, 0x81, 0x3b, 0xbe, 0x1a, 0x12, 0x14, 0x3f,
     0xa4, 0xca, 0x16, 0xbd, 0x4f, 0x9c, 0x35, 0xbe, 0xb9, 0x82, 0x53, 0xbd,
     0x4f, 0x62, 0x58, 0xbb, 0xde, 0x34, 0xae, 0x3e, 0x99, 0xcd, 0xe2, 0xbd,
     0x19, 0x06, 0x7c, 0x3e, 0xc0, 0x1f, 0xa3, 0xbe, 0x86, 0xf0, 0x9d, 0xbd,
     0x72, 0x91, 0x67, 0xbc, 0x82, 0x47, 0x31, 0x3e, 0x01, 0x89, 0x14, 0x3e,
     0xde, 0x49, 0x12, 0xbe, 0xac, 0xaf, 0x6b, 0x3d, 0x87, 0x39, 0x43, 0x3d,
     0xa8, 0xd0, 0xb9, 0x3e, 0xa8, 0x9c, 0x6c, 0x3e, 0xa2, 0x22, 0xd0, 0x3e,
     0x8e, 0x38, 0x35, 0xbe, 0x5b, 0xee, 0x7b, 0xbe, 0x0a, 0xc0, 0x4e, 0x3e,
     0x07, 0x13, 0xe0, 0xbd, 0x07, 0xc2, 0x08, 0xbd, 0x16, 0x27, 0x01, 0xbe,
     0x1d, 0x3b, 0xd3, 0x3e, 0xcd, 0xe0, 0xbc, 0xbd, 0x14, 0xf8, 0x3e, 0x3e,
     0xbc, 0x52, 0xcb, 0xbe, 0x09, 0x80, 0x8e, 0xbe, 0x01, 0x0a, 0xd0, 0x3d,
     0xed, 0x57, 0x9a, 0x3e, 0x61, 0x2b, 0x88, 0x3e, 0x90, 0xbd, 0xc1, 0xbd,
     0xfe, 0x84, 0x15, 0x3f, 0x40, 0x52, 0xf8, 0xbf, 0xfd, 0x3f, 0xf6, 0x3e,
     0x3f, 0x6a, 0xdf, 0x3d, 0xb7, 0x84, 0x93, 0x3f, 0x21, 0x87, 0x22, 0x3e,
     0x64, 0x70, 0x86, 0x3e, 0x9a, 0x13, 0x62, 0x3e, 0x49, 0xd7, 0x81, 0xbe,
     0x02, 0xc0, 0xf2, 0x3e, 0x67, 0x7d, 0xd5, 0xbd, 0xb4, 0x1b, 0x95, 0xbd,
     0xba, 0xb6, 0x8c, 0x3e, 0xac, 0xa3, 0x36, 0x39, 0xea, 0xc5, 0x90, 0x3d,
     0x08, 0xd3, 0x9a, 0x3d, 0x2d, 0xdb, 0x08, 0xbe, 0x23, 0x29, 0x41, 0x3f,
     0x15, 0x83, 0x62, 0xbe, 0xcf, 0xd8, 0x95, 0x3e, 0x88, 0xaa, 0x46, 0x3e,
     0x77, 0xc8, 0x8a, 0x3e, 0xaa, 0xc5, 0x4d, 0x3d, 0x55, 0xa4, 0x4d, 0xbe,
     0x71, 0x9c, 0x98, 0xbe, 0xdc, 0xb2, 0x62, 0x3b, 0xf0, 0x58, 0xa1, 0x3e,
     0x98, 0xb9, 0x27, 0xb9, 0xd0, 0x36, 0x36, 0xbe, 0x5c, 0x0b, 0x52, 0xbe,
     0xa0, 0x56, 0xa8, 0x3e, 0x91, 0x43, 0xdf, 0x3d, 0xd1, 0x72, 0x5b, 0x3f,
     0xa1, 0xae, 0xd4, 0xbf, 0xee, 0x09, 0xea, 0x3d, 0x7b, 0xc2, 0x18, 0x3c,
     0xd0, 0x72, 0x80, 0x3f, 0x29, 0x05, 0x89, 0xbe, 0xd1, 0x05, 0xcf, 0x3d,
     0xb5, 0xff, 0x1a, 0xbe, 0x37, 0x87, 0x73, 0x3e, 0x1d, 0xb2, 0x0b, 0x3f,
     0xe7, 0xb9, 0x23, 0xbe, 0x51, 0xae, 0xd3, 0xbc, 0x92, 0x6b, 0x5a, 0x3d,
     0x02, 0xa6, 0xad, 0xbe, 0x71, 0x36, 0xbc, 0x3e, 0x0b, 0x7e, 0xa2, 0xbc,
     0x2e, 0x51, 0x28, 0xbd, 0x05, 0x14, 0xab, 0x3f, 0x28, 0x97, 0x77, 0x3e,
     0xd4, 0xc5, 0xf6, 0x3e, 0xc9, 0x1e, 0xb4, 0xbe, 0xdd, 0x32, 0x21, 0xbd,
     0xba, 0xfc, 0xfa, 0x3d, 0xce, 0x11, 0x02, 0xbd, 0x4a, 0x07, 0x4d, 0xbe,
     0x73, 0xaf, 0x4b, 0xbe, 0xf1, 0x2d, 0x6d, 0xbb, 0xe2, 0xed, 0x2f, 0xbe,
     0x2d, 0x15, 0x0f, 0x3e, 0x41, 0x5d, 0xae, 0xbe, 0x8c, 0x21, 0xea, 0x3e,
     0xdd, 0xc0, 0xa6, 0x3e, 0xfa, 0xa2, 0x5d, 0xbc, 0xca, 0x9a, 0xab, 0x3f,
     0xe3, 0x3a, 0xf1, 0xbd, 0x72, 0x50, 0xec, 0xbd, 0xd3, 0x8f, 0x03, 0xbf,
     0xd0, 0x15, 0x8b, 0x3b, 0xbf, 0xca, 0x5d, 0x3e, 0x24, 0xaf, 0x52, 0xbd,
     0x16, 0x23, 0x84, 0x3e, 0x03, 0x8c, 0x89, 0xbf, 0x8c, 0x22, 0xb5, 0x3e,
     0x3d, 0x69, 0x28, 0xbd, 0x17, 0x13, 0xd7, 0x3d, 0x85, 0x43, 0xec, 0x3d,
     0x59, 0xc1, 0x92, 0xbd, 0xa7, 0xd1, 0x53, 0x3d, 0x64, 0x99, 0x29, 0x3e,
     0xbe, 0x4a, 0x97, 0xbf, 0x3b, 0x68, 0xad, 0x3e, 0xd3, 0x27, 0x02, 0xbe,
     0x11, 0xaa, 0x46, 0xbe, 0x15, 0x10, 0x3a, 0x3e, 0x22, 0x19, 0x9c, 0xbd,
     0xf7, 0x32, 0x66, 0x3e, 0x03, 0x7a, 0x4a, 0x3d, 0xe1, 0xa4, 0xe9, 0x3d,
     0x6a, 0x98, 0xc4, 0xbd, 0x19, 0x17, 0xe3, 0xbd, 0x31, 0x92, 0x08, 0xbe,
     0x04, 0x9e, 0x32, 0x3e, 0xda, 0x04, 0xc5, 0xbe, 0x97, 0xb4, 0x25, 0xbe,
     0x60, 0xca, 0x77, 0x3f, 0x2c, 0x87, 0xdd, 0xbf, 0x33, 0xcb, 0x86, 0x3e,
     0xaf, 0x00, 0x9c, 0x3d, 0xe0, 0xe2, 0x86, 0x3f, 0xd0, 0x0d, 0xb2, 0xbe,
     0x79, 0xdc, 0x48, 0xbe, 0x0d, 0x39, 0x22, 0x3e, 0x3c, 0x2c, 0xa8, 0x3e,
     0x58, 0x32, 0x95, 0x3f, 0x0e, 0xec, 0x33, 0x3e, 0x23, 0xa2, 0x64, 0x3c,
     0xd6, 0x13, 0xa5, 0x3c, 0xa1, 0x97, 0x22, 0xbe, 0x1e, 0xd6, 0xc6, 0x3e,
     0xde, 0x82, 0xb4, 0xbe, 0xc2, 0xd0, 0x4a, 0xbe, 0x54, 0x8d, 0x87, 0x3f,
     0x7b, 0x01, 0x3f, 0xbe, 0x2f, 0x6f, 0xed, 0x3e, 0x96, 0x1f, 0x95, 0xbe,
     0xe8, 0xeb, 0x99, 0x3e, 0xfc, 0x98, 0xf7, 0x3d, 0x36, 0x76, 0x9f, 0xbc,
     0x6a, 0x48, 0xac, 0xbd, 0xdf, 0xd6, 0x1d, 0x3e, 0x62, 0xb0, 0x46, 0xbe,
     0xe0, 0x11, 0xa3, 0xbd, 0x76, 0xd0, 0xc2, 0xbd, 0x8f, 0xf6, 0x67, 0xbe,
     0xf3, 0x48, 0x87, 0x3e, 0x5e, 0x87, 0x34, 0xbe, 0xe1, 0x8b, 0x75, 0x3e,
     0x22, 0x34, 0x11, 0x3e, 0x11, 0x1c, 0xbd, 0x3e, 0xc6, 0x40, 0x4f, 0x3c,
     0x39, 0xb4, 0x29, 0x3e, 0x09, 0xbb, 0xc0, 0xbe, 0xe8, 0x22, 0x30, 0xbd,
     0x67, 0x99, 0x21, 0xbf, 0x10, 0x74, 0x2f, 0xbe, 0x7e, 0x8e, 0x6f, 0xbc,
     0xb2, 0xab, 0x39, 0xbe, 0x89, 0xe3, 0xc4, 0xbe, 0xba, 0x38, 0xaa, 0x3e,
     0x5d, 0x9c, 0x13, 0x3e, 0x6e, 0x1a, 0xbf, 0x3e, 0xf0, 0x16, 0x9a, 0xbe,
     0x5e, 0x23, 0xf0, 0x3d, 0x84, 0x7c, 0x7a, 0xbe, 0x58, 0xda, 0x62, 0xbc,
     0x23, 0xfe, 0x0a, 0x3f, 0xf1, 0xee, 0x42, 0x3e, 0xcb, 0x60, 0xed, 0xbb,
     0x24, 0xa4, 0xdd, 0xbe, 0x80, 0x87, 0xeb, 0x3d, 0x3c, 0x27, 0x7f, 0x3d,
     0xce, 0x02, 0x1a, 0xbe, 0xfd, 0xd6, 0x3d, 0x3e, 0x02, 0xaf, 0x9d, 0xbe,
     0x2f, 0xc9, 0x99, 0xbe, 0x2a, 0xc0, 0xcd, 0xbe, 0x32, 0xc9, 0xa6, 0x3e,
     0xb3, 0x40, 0x6c, 0x3e, 0x13, 0x58, 0x5d, 0xbe, 0xda, 0xe8, 0x66, 0x3f,
     0x48, 0x89, 0xd8, 0xbe, 0xcb, 0xaf, 0xa7, 0xbe, 0x75, 0xb6, 0x33, 0xbf,
     0xd8, 0x2a, 0xf4, 0x3d, 0xaa, 0xc9, 0x62, 0x3e, 0x54, 0xab, 0x8e, 0x3e,
     0xe8, 0xad, 0x30, 0x3e, 0x73, 0xf6, 0x66, 0xbf, 0xa5, 0xb1, 0xe7, 0x3c,
     0x82, 0xe5, 0xf6, 0xbd, 0xf6, 0x23, 0x8c, 0xbd, 0x32, 0x7c, 0x87, 0xbc,
     0xdf, 0x35, 0x6e, 0xbd, 0x75, 0x4f, 0x87, 0xbe, 0xea, 0xbc, 0x67, 0x3e,
     0xf1, 0xcc, 0xa4, 0xbf, 0x76, 0xf1, 0x8f, 0xbd, 0xb1, 0x44, 0xef, 0xbe,
     0x17, 0x9e, 0xac, 0xbb, 0xbc, 0xd3, 0x71, 0xbe, 0x8a, 0x36, 0xef, 0x3d,
     0xe2, 0xdc, 0x35, 0x3d, 0x29, 0xe3, 0x32, 0x3d, 0xe9, 0x6e, 0x5d, 0x3e,
     0x84, 0xd3, 0x06, 0xbe, 0xe3, 0x98, 0xf7, 0x3d, 0xfb, 0x45, 0x91, 0xbe,
     0xb8, 0x59, 0x84, 0xbe, 0x87, 0x11, 0x88, 0xbd, 0x90, 0x6e, 0x99, 0xbe,
     0x0f, 0x58, 0x22, 0x3f, 0xe5, 0x9b, 0xb6, 0xbf, 0x24, 0x1b, 0x06, 0x3f,
     0xb2, 0x23, 0x11, 0xbe, 0x38, 0x56, 0x7f, 0x3f, 0x22, 0xdc, 0xef, 0xbd,
     0xab, 0x95, 0x89, 0x3e, 0x8f, 0xbc, 0x24, 0x3e, 0x26, 0xbb, 0x99, 0x3d,
     0xcb, 0x1d, 0x33, 0x3f, 0xdc, 0x65, 0x1e, 0xbe, 0x6a, 0x1f, 0x1b, 0x3e,
     0xd3, 0x54, 0x17, 0x3d, 0x6c, 0xaa, 0xb6, 0xbe, 0x1e, 0x8a, 0x10, 0x3f,
     0xa6, 0xd5, 0xd8, 0x3c, 0x05, 0x88, 0xc7, 0xbc, 0xd1, 0x2a, 0x7c, 0x3f,
     0x19, 0xba, 0xe2, 0xbd, 0x63, 0xba, 0x97, 0x3e, 0x36, 0xac, 0x9a, 0xbd,
     0xac, 0x26, 0x02, 0x3e, 0x67, 0x86, 0x5c, 0x3e, 0xbc, 0xf5, 0x17, 0xbe,
     0xda, 0x98, 0x96, 0xbe, 0xda, 0x96, 0xdc, 0xbb, 0x7b, 0x48, 0xeb, 0xbd,
     0x63, 0xf2, 0x65, 0xbe, 0x60, 0x62, 0x53, 0x3d, 0x5a, 0xb7, 0x8d, 0xbe,
     0x9a, 0xcd, 0x06, 0x3f, 0x3d, 0x7c, 0x7b, 0x3e, 0x27, 0x08, 0xbf, 0x3e,
     0x98, 0x87, 0x5c, 0x3e, 0x84, 0x66, 0x63, 0x3e, 0xba, 0x20, 0xe9, 0xbc,
     0x50, 0x1f, 0xb8, 0x3e, 0x03, 0xbe, 0x3f, 0xbe, 0x55, 0xc0, 0x0a, 0xbc,
     0x08, 0xb3, 0x19, 0xbf, 0x43, 0x70, 0x57, 0xbd, 0xdf, 0xe5, 0x65, 0xbd,
     0x01, 0x8f, 0x2b, 0x3e, 0xab, 0x4b, 0x26, 0xbf, 0xa2, 0x7c, 0x9e, 0x3d,
     0xcc, 0x1c, 0x95, 0xbd, 0x00, 0xd9, 0x50, 0x3e, 0xb2, 0x02, 0x3c, 0xbe,
     0x02, 0x43, 0xc9, 0xbc, 0x6f, 0x30, 0x06, 0xbe, 0xb1, 0x97, 0x5b, 0x3e,
     0x41, 0x75, 0xbb, 0x3e, 0xc3, 0xcf, 0xad, 0x3d, 0x27, 0xc7, 0x7d, 0xbd,
     0x1c, 0x98, 0x96, 0xbe, 0x27, 0x22, 0xf1, 0x3d, 0xd7, 0x14, 0xe8, 0xbc,
     0x98, 0xc5, 0x2c, 0xbe, 0x63, 0xcb, 0x9e, 0xbe, 0x36, 0x86, 0xac, 0x3d,
     0x9c, 0xc7, 0x82, 0xbe, 0xb6, 0xa2, 0x76, 0xbe, 0xa7, 0x27, 0xca, 0x3d,
     0x99, 0x30, 0x93, 0xbe, 0xba, 0x06, 0xf2, 0xbe, 0x6a, 0x2c, 0x86, 0x3f,
     0x20, 0x6c, 0x19, 0xbf, 0x80, 0x7b, 0x86, 0xbe, 0xb9, 0x27, 0xc0, 0xbe,
     0xa3, 0x7c, 0x59, 0xbe, 0x0a, 0xd9, 0x4d, 0x3e, 0xe2, 0xb5, 0x71, 0xbe,
     0xcf, 0x54, 0x9b, 0x3e, 0x8b, 0x46, 0x47, 0xbf, 0x6b, 0x47, 0x13, 0xbe,
     0xd1, 0xee, 0xab, 0xbd, 0x96, 0x34, 0x3e, 0x3e, 0xcb, 0xfb, 0x78, 0x3e,
     0x93, 0xe3, 0xed, 0xbe, 0xb0, 0x26, 0x3a, 0xbd, 0x5f, 0xd7, 0x80, 0xbe,
     0x03, 0x06, 0xb2, 0xbf, 0xce, 0x9c, 0xe4, 0x3d, 0x63, 0xe1, 0x26, 0xbd,
     0x6a, 0xbd, 0xce, 0x3b, 0xb5, 0xac, 0x8e, 0x3e, 0xd7, 0xd0, 0x6e, 0x3d,
     0x88, 0x79, 0x4d, 0x3e, 0x97, 0xd1, 0x8e, 0x3e, 0xd6, 0x0f, 0x4c, 0xbd,
     0x0c, 0x4f, 0x5a, 0x3e, 0x28, 0x3f, 0x87, 0xbc, 0xa0, 0xa7, 0xca, 0x3d,
     0x24, 0x96, 0x78, 0xbe, 0xba, 0x30, 0xdb, 0xbe, 0xf1, 0x69, 0x7d, 0x3e,
     0x30, 0xef, 0x4d, 0x3f, 0x53, 0x46, 0xd6, 0xbf, 0x7e, 0x87, 0x34, 0x3e,
     0xc1, 0xed, 0x34, 0xbe, 0x21, 0xbe, 0x74, 0x3f, 0xa0, 0x97, 0x24, 0x3e,
     0x05, 0x1b, 0xb8, 0xbd, 0x5e, 0x91, 0x87, 0x3e, 0xfe, 0x8b, 0x50, 0x3e,
     0x23, 0x9c, 0x0d, 0x3f, 0x99, 0x60, 0xb7, 0xbe, 0x12, 0x75, 0xb7, 0x3d,
     0xd0, 0xa6, 0x49, 0x3e, 0x54, 0x18, 0x05, 0xbe, 0x2a, 0x07, 0x12, 0x3b,
     0x91, 0x23, 0xba, 0xbc, 0x5d, 0xd9, 0x9c, 0xbd, 0xe1, 0x6b, 0xa0, 0x3f,
     0x0b, 0x2f, 0x01, 0xbe, 0xfe, 0x9f, 0xdd, 0x3d, 0x5a, 0x66, 0xab, 0xbe,
     0x6d, 0x0d, 0x78, 0xbe, 0x88, 0x4c, 0x41, 0x3e, 0x0e, 0x79, 0x74, 0x3e,
     0x15, 0x16, 0xbf, 0x3b, 0xf4, 0x10, 0xe7, 0xbd, 0x54, 0x63, 0x52, 0xbe,
     0xbf, 0x04, 0x9b, 0x3e, 0xc3, 0xb4, 0x8d, 0x3e, 0xf1, 0x75, 0x9b, 0xbe,
     0xf3, 0x81, 0x00, 0x3f, 0xdc, 0x94, 0x5b, 0xbe, 0x17, 0x6f, 0x48, 0x3f,
     0xea, 0x9a, 0xd1, 0xbf, 0xb3, 0x59, 0x01, 0x3f, 0xed, 0xdb, 0xdc, 0xbd,
     0x17, 0xd5, 0x9b, 0x3f, 0xd3, 0x28, 0x92, 0xbe, 0x99, 0x59, 0x64, 0x3d,
     0x1e, 0xbc, 0xe1, 0x3d, 0x3c, 0x86, 0x07, 0x3e, 0xd6, 0x8a, 0x55, 0x3f,
     0x43, 0xd5, 0xcb, 0x3d, 0xf3, 0x7b, 0x06, 0x3d, 0x42, 0x0a, 0x45, 0x3e,
     0x26, 0xf9, 0x49, 0x3e, 0x9f, 0x89, 0x08, 0x3e, 0x73, 0x34, 0x69, 0x3e,
     0x24, 0xfe, 0xda, 0x3d, 0xd2, 0xf9, 0x4e, 0x3f, 0xb8, 0xa6, 0xb2, 0xbe,
     0xa8, 0xa5, 0x96, 0x3e, 0x1d, 0x4d, 0xf5, 0x3d, 0xdb, 0x49, 0x8f, 0x3c,
     0x90, 0xb2, 0xe5, 0xbd, 0xca, 0xd8, 0x40, 0x3e, 0x9b, 0x23, 0x9e, 0xbe,
     0x0b, 0x10, 0x15, 0x3d, 0x8a, 0xc5, 0xa0, 0x3e, 0x24, 0x3c, 0x17, 0x3e,
     0xe5, 0x8e, 0x7f, 0xbe, 0x08, 0x16, 0xb9, 0xbe, 0x45, 0x97, 0x97, 0x3e,
     0x8f, 0x73, 0x5f, 0xbc, 0xb0, 0xeb, 0x22, 0xbd, 0x15, 0x81, 0x58, 0xbe,
     0xa6, 0xd8, 0x8c, 0xbe, 0x85, 0xe9, 0x12, 0xbe, 0x9f, 0x14, 0x83, 0x3e,
     0x0c, 0x4d, 0xda, 0xbd, 0xf4, 0x6e, 0xf9, 0x3d, 0x6f, 0x25, 0x98, 0xbe,
     0xd7, 0x55, 0x1b, 0xbe, 0x49, 0xe2, 0x38, 0xbd, 0x3e, 0x61, 0x63, 0x3e,
     0x70, 0x6c, 0x87, 0x3d, 0xfb, 0x15, 0xf9, 0x3a, 0x7a, 0xb3, 0x08, 0xbe,
     0xa2, 0xd1, 0x2d, 0x3e, 0xf6, 0x80, 0xdd, 0xbd, 0xdd, 0x77, 0x5e, 0xbe,
     0x52, 0x8b, 0x9c, 0xbe, 0x70, 0x2e, 0x80, 0xbe, 0x03, 0x86, 0x53, 0x3e,
     0x56, 0x2a, 0x8b, 0xbd, 0x53, 0x75, 0x90, 0xbe, 0x5a, 0x98, 0x7f, 0xbd,
     0x38, 0xad, 0x00, 0x3e, 0xa2, 0x2d, 0xf7, 0xbd, 0xb5, 0xd8, 0xba, 0x3d,
     0xc5, 0x3f, 0x72, 0x3e, 0xd9, 0x3b, 0x82, 0xbd, 0xb5, 0x9d, 0x8b, 0xbe,
     0xe5, 0x7f, 0x4c, 0xbe, 0x38, 0xfd, 0xfc, 0xbd, 0xd7, 0xb5, 0x9f, 0xbd,
     0xc8, 0xd8, 0x72, 0xbe, 0xc8, 0x72, 0x59, 0xbe, 0x24, 0x67, 0x89, 0x3d,
     0x8a, 0xae, 0xe8, 0xbd, 0x82, 0x71, 0xf1, 0xbd, 0xf8, 0x69, 0x73, 0xbe,
     0x26, 0x27, 0x7d, 0xbe, 0xbc, 0xc7, 0xd9, 0x3d, 0xc0, 0x6c, 0xcd, 0x3d,
     0xfd, 0xa5, 0x8a, 0xbe, 0x20, 0xf3, 0xcd, 0xbc, 0x18, 0x61, 0xb0, 0xbd,
     0xb4, 0x49, 0x8e, 0xbe, 0x30, 0x05, 0x20, 0x3d, 0xcb, 0x28, 0x96, 0xbe,
     0xc5, 0x7b, 0x9b, 0xbe, 0x88, 0xef, 0x04, 0x3d, 0x5c, 0xd4, 0x84, 0x3d,
     0x1c, 0x52, 0x38, 0xbe, 0xd8, 0xe6, 0xa0, 0x3d, 0x50, 0xdc, 0xe2, 0xbc,
     0x7c, 0x2e, 0xc2, 0xbd, 0x9c, 0xea, 0x06, 0xbe, 0x0d, 0x2b, 0x8b, 0x3e,
     0x26, 0xdf, 0x00, 0x3e, 0x12, 0x8b, 0x1a, 0x3e, 0xe4, 0xd8, 0x99, 0x3d,
     0xc3, 0x7f, 0x1c, 0xbe, 0x48, 0x09, 0xcd, 0x3d, 0x54, 0xf6, 0x5b, 0xbe,
     0x04, 0xaa, 0xa6, 0x3d, 0xd6, 0xd9, 0x57, 0x3e, 0x09, 0x7e, 0x24, 0xbc,
     0x59, 0x8a, 0xca, 0x3d, 0x30, 0xe6, 0xfc, 0x3e, 0x9b, 0x5f, 0xd9, 0xbd,
     0x0a, 0x01, 0x4c, 0x3c, 0x4f, 0x5c, 0x9f, 0xbe, 0x7a, 0x86, 0x91, 0xbe,
     0xf1, 0x5f, 0xe0, 0xbd, 0x42, 0x2f, 0xce, 0x3d, 0x21, 0x44, 0x1b, 0x3e,
     0x89, 0xac, 0x4c, 0xbd, 0xcb, 0xe5, 0x63, 0xbe, 0x2a, 0x89, 0x11, 0x3d,
     0x25, 0x98, 0x26, 0xbd, 0xd5, 0x8b, 0x90, 0x3e, 0x6c, 0x8f, 0x89, 0xbd,
     0x85, 0x7b, 0xe8, 0x3d, 0x79, 0xd0, 0xb2, 0xbe, 0xe6, 0x6b, 0x33, 0xbe,
     0x4d, 0xe3, 0xdd, 0x3e, 0x16, 0x58, 0xbb, 0xbd, 0x4f, 0x77, 0xea, 0xbe,
     0xd3, 0x30, 0x84, 0x3c, 0x34, 0x6b, 0x0f, 0x3e, 0xdc, 0xcf, 0x83, 0xbe,
     0x4b, 0x21, 0xd0, 0xbe, 0xc4, 0x5a, 0x37, 0xbe, 0x99, 0x71, 0xc3, 0xbe,
     0xd4, 0x5e, 0xba, 0xbe, 0x7f, 0x25, 0xac, 0xbe, 0x8d, 0xdc, 0x0a, 0x3f,
     0x8b, 0x07, 0x13, 0xbe, 0x7a, 0x5e, 0x29, 0xbe, 0x33, 0x02, 0xa4, 0x3f,
     0x2f, 0x8b, 0xed, 0xbd, 0x0c, 0xa9, 0xa7, 0x3d, 0x84, 0x64, 0x0b, 0xbf,
     0x4b, 0xcc, 0x7b, 0x3e, 0x0e, 0xe7, 0xc2, 0xbd, 0x9a, 0x13, 0xfa, 0x3c,
     0xab, 0x0d, 0x64, 0x3e, 0x5c, 0x1b, 0x3e, 0xbf, 0x29, 0x36, 0x8a, 0xbe,
     0x77, 0x28, 0x49, 0x3e, 0x12, 0xaf, 0x60, 0x3d, 0xcc, 0xfd, 0x42, 0xbe,
     0x57, 0xe9, 0xea, 0xbe, 0x52, 0x0f, 0x84, 0xbd, 0x21, 0xbe, 0x54, 0x3e,
     0x63, 0x0c, 0x3f, 0xbf, 0xa7, 0x60, 0x32, 0xbd, 0x30, 0xcb, 0x0b, 0xbf,
     0x58, 0x8c, 0x09, 0xbe, 0x80, 0xa7, 0x39, 0xbe, 0xd1, 0x91, 0xb2, 0xbd,
     0x78, 0x08, 0x8a, 0xbe, 0x42, 0xd8, 0x83, 0x3c, 0xc6, 0x07, 0x0a, 0x3d,
     0x21, 0x31, 0x24, 0x3d, 0x67, 0xe6, 0x69, 0x3e, 0x04, 0xc8, 0xef, 0xbd,
     0x40, 0x15, 0x12, 0xbd, 0xf0, 0xe7, 0x0d, 0xbf, 0x1b, 0x8d, 0x8b, 0x3e,
     0xd3, 0x0a, 0x48, 0x3e, 0xa6, 0xdc, 0x4d, 0x3e, 0x52, 0x7f, 0x33, 0xbe,
     0x5e, 0x71, 0x52, 0x3e, 0x7a, 0x72, 0xb6, 0xbb, 0x47, 0x75, 0x88, 0xbe,
     0xec, 0x0e, 0x0b, 0xbd, 0x04, 0x72, 0x46, 0xbe, 0x7c, 0xc6, 0x94, 0xbe,
     0x89, 0x56, 0x1d, 0x3e, 0x95, 0xa1, 0xe6, 0xbc, 0x9f, 0x3b, 0x89, 0xbe,
     0xf5, 0x3f, 0x8a, 0x3e, 0xb1, 0x1b, 0x99, 0x3d, 0x1e, 0xd5, 0x26, 0xbd,
     0xde, 0xca, 0x78, 0xbe, 0x32, 0x77, 0x38, 0x3e, 0x8c, 0xab, 0xf9, 0x3c,
     0x21, 0x7d, 0x46, 0x3e, 0xfc, 0xde, 0x8d, 0xbe, 0xfc, 0xef, 0x94, 0xbe,
     0x9a, 0xc4, 0x5f, 0xbe, 0xa1, 0x1d, 0x74, 0x3e, 0x4a, 0xd7, 0x4c, 0x3e,
     0x60, 0xee, 0x51, 0xbc, 0x44, 0x81, 0x99, 0x3d, 0xc7, 0x44, 0xac, 0xbd,
     0x5c, 0x64, 0x60, 0xbe, 0x2d, 0x99, 0x46, 0x3e, 0x3d, 0x4a, 0x9c, 0xbe,
     0xdf, 0x0a, 0x82, 0xbe, 0x2e, 0x2a, 0x0b, 0x3d, 0x4e, 0x09, 0xea, 0xbe,
     0xce, 0x1c, 0x69, 0x3f, 0x70, 0x25, 0xdb, 0xbd, 0x72, 0xfa, 0x90, 0x3e,
     0x1b, 0xd3, 0x12, 0xbf, 0x61, 0x6e, 0xf3, 0xbd, 0xde, 0xa1, 0x83, 0x3e,
     0x47, 0xc9, 0xc3, 0xbd, 0xa8, 0x22, 0x55, 0x3e, 0xb9, 0x7a, 0xfa, 0xbe,
     0xc2, 0x5f, 0x8e, 0x3b, 0xd6, 0x98, 0x58, 0x3d, 0x1b, 0x97, 0x3c, 0x3a,
     0xf9, 0xbf, 0x93, 0xbe, 0x7f, 0x20, 0x03, 0xbf, 0xb8, 0xb6, 0x96, 0xbd,
     0xf4, 0x4b, 0x93, 0xbd, 0xf3, 0x78, 0x36, 0xbf, 0x91, 0x59, 0x8f, 0x3b,
     0x7f, 0x02, 0x19, 0xbe, 0x06, 0xa9, 0x3f, 0xbe, 0x2c, 0xe6, 0xa9, 0xbd,
     0xa4, 0x37, 0x64, 0xbe, 0xc5, 0x9b, 0xd6, 0x3d, 0x27, 0x95, 0x9c, 0x3e,
     0xbf, 0x3e, 0xb8, 0x3d, 0x74, 0xce, 0xc1, 0x3d, 0x68, 0x17, 0x26, 0xbe,
     0xa9, 0xd8, 0x5a, 0xbe, 0xfb, 0xe9, 0x2f, 0x3e, 0x26, 0x67, 0xe8, 0xbe,
     0x9c, 0x59, 0x80, 0x3d, 0x69, 0x99, 0x00, 0x3e, 0x71, 0xd1, 0xa5, 0x3e,
     0x51, 0xd4, 0x91, 0x3e, 0xf0, 0xf1, 0xd4, 0xbe, 0xf1, 0xb3, 0xb7, 0x3d,
     0x87, 0x43, 0xb5, 0xbe, 0xe0, 0xc0, 0x39, 0xbe, 0x26, 0x75, 0x0f, 0xbf,
     0xda, 0xea, 0x8e, 0x3e, 0x8a, 0x79, 0x23, 0x3e, 0x27, 0xb1, 0xdb, 0xbe,
     0x7d, 0x4b, 0x1a, 0xbf, 0x31, 0x7a, 0xaa, 0x3e, 0x15, 0xf8, 0xfb, 0xbd,
     0x95, 0x79, 0xab, 0x3e, 0x51, 0xfb, 0x33, 0xbe, 0x2e, 0xd8, 0x7e, 0xbd,
     0x87, 0xb9, 0xdf, 0xbe, 0x1c, 0x51, 0x93, 0xbe, 0xc4, 0x44, 0xa3, 0x3e,
     0x01, 0x6f, 0xa3, 0xbe, 0x1f, 0x3b, 0x0a, 0xbd, 0x33, 0x1f, 0x8b, 0xbe,
     0x59, 0xf9, 0xcb, 0x3d, 0xd8, 0x9f, 0x04, 0x3e, 0x15, 0x38, 0x79, 0xbe,
     0xe8, 0x0c, 0x51, 0xbe, 0xea, 0x65, 0x74, 0xbc, 0xcd, 0xc2, 0xac, 0xbe,
     0xc5, 0xd6, 0x8a, 0xbd, 0x2a, 0xbf, 0x2e, 0xbb, 0x5f, 0x37, 0x0c, 0x3e,
     0xc2, 0xc2, 0x35, 0x3f, 0xd9, 0x32, 0xdc, 0xbf, 0x3f, 0x4a, 0xf6, 0x3e,
     0xa8, 0x2c, 0x9b, 0xbe, 0x28, 0x56, 0x49, 0x3f, 0x89, 0x24, 0x54, 0xbe,
     0x45, 0x54, 0xdc, 0x3d, 0xd6, 0x16, 0xd5, 0x3d, 0xa1, 0x3c, 0x37, 0xbd,
     0xf7, 0x29, 0x5d, 0x3f, 0x33, 0x70, 0x39, 0x3d, 0xb2, 0xa8, 0xe2, 0x3d,
     0xd5, 0xe6, 0x8e, 0x3e, 0x9d, 0xd3, 0x28, 0x3e, 0xeb, 0xa4, 0xb3, 0x3e,
     0x86, 0x3a, 0x4c, 0xbe, 0x5b, 0xf3, 0x02, 0xbe, 0xcd, 0x32, 0x94, 0x3f,
     0xd5, 0xb3, 0x81, 0xbe, 0xa0, 0x27, 0x4a, 0x3e, 0x13, 0x5b, 0x2a, 0xbe,
     0x4f, 0xf4, 0x8d, 0x3e, 0xd4, 0x79, 0x05, 0xbe, 0xbe, 0x96, 0x6c, 0xbe,
     0x7d, 0x67, 0x8d, 0xbd, 0xf2, 0xe5, 0x09, 0xbe, 0x3e, 0x5d, 0x9f, 0xbb,
     0xdf, 0x9b, 0xc0, 0x3c, 0x25, 0xd2, 0x88, 0x3e, 0xc9, 0xc3, 0x1f, 0xbe,
     0x6d, 0x59, 0x0a, 0x3f, 0x99, 0x1d, 0xa3, 0x3b, 0x8d, 0x06, 0x5a, 0x3f,
     0xe2, 0xa4, 0xeb, 0xbf, 0x0a, 0xbd, 0xc6, 0x3d, 0xee, 0xee, 0x25, 0xbe,
     0x9e, 0x20, 0x8a, 0x3f, 0x44, 0x6a, 0x00, 0x3e, 0xbe, 0x43, 0x13, 0xbe,
     0xf8, 0x66, 0xc8, 0x3d, 0x89, 0xd6, 0xcb, 0x3b, 0x39, 0x98, 0x79, 0x3f,
     0xbb, 0x0d, 0xc7, 0xbd, 0xb8, 0x44, 0x02, 0xbd, 0xc3, 0x26, 0xd9, 0x3d,
     0xea, 0xec, 0xa1, 0xbe, 0xcf, 0x53, 0xe9, 0x3e, 0x17, 0x5d, 0x60, 0x3e,
     0x52, 0x2b, 0x03, 0xbc, 0xdf, 0x4e, 0x5d, 0x3f, 0x4e, 0x46, 0x7b, 0xbe,
     0xc0, 0x31, 0x2c, 0x3e, 0x80, 0xb1, 0xaf, 0xbd, 0x2b, 0x23, 0x7c, 0x3e,
     0x41, 0xc5, 0x6b, 0x3e, 0x40, 0xdd, 0x7c, 0x3e, 0xe1, 0x3c, 0x57, 0xbe,
     0xe1, 0x33, 0x23, 0xbe, 0x81, 0x58, 0x9d, 0x3e, 0xdc, 0x78, 0x86, 0x3e,
     0x03, 0x17, 0xae, 0x3d, 0x34, 0x17, 0xb2, 0xbe, 0xd9, 0x30, 0x8b, 0x3e,
     0x7c, 0xd6, 0x20, 0xbe, 0xd3, 0xbd, 0xb5, 0x3e, 0x78, 0x32, 0xa0, 0x3e,
     0x85, 0x3c, 0x02, 0x3f, 0x63, 0x08, 0x2c, 0xbe, 0xfc, 0x39, 0xb8, 0x3d,
     0x20, 0x4b, 0xca, 0xbe, 0x45, 0x22, 0x36, 0xbe, 0xfa, 0x4e, 0xe6, 0xbe,
     0xc6, 0xf5, 0x21, 0x3e, 0xa9, 0x58, 0xb9, 0x3d, 0x6a, 0x78, 0x24, 0x3e,
     0x38, 0xdb, 0x14, 0xbf, 0x3d, 0x36, 0x4b, 0x3e, 0x06, 0xf9, 0xa0, 0xbe,
     0x56, 0xfe, 0x2f, 0x3e, 0x63, 0xff, 0x9e, 0x3d, 0x2e, 0x7e, 0xc1, 0xbe,
     0x32, 0xe1, 0x4b, 0xbe, 0xb5, 0x79, 0xb4, 0x3c, 0xbe, 0x63, 0xab, 0x3d,
     0xcd, 0xa9, 0x17, 0xbe, 0x9d, 0x88, 0xee, 0xbd, 0x10, 0x8e, 0xdd, 0xbe,
     0x02, 0x09, 0xa6, 0xbe, 0x1a, 0xf8, 0xfd, 0x3d, 0x19, 0x96, 0x31, 0xbd,
     0xcd, 0xdf, 0x81, 0xbe, 0xf6, 0x16, 0x7d, 0xbe, 0x82, 0x7e, 0xe0, 0xbe,
     0x28, 0xa8, 0xa9, 0xbe, 0x01, 0x8c, 0x01, 0x3f, 0x6e, 0xab, 0x71, 0x3d,
     0x05, 0x15, 0xbb, 0xbd, 0xeb, 0xc3, 0x2c, 0x3d, 0x5c, 0xbe, 0x37, 0xbe,
     0x5a, 0x77, 0x4b, 0xbe, 0x55, 0x7d, 0xd4, 0xbd, 0x66, 0xc2, 0x8b, 0xbe,
     0x7d, 0x7d, 0x52, 0x3e, 0x48, 0xe4, 0x06, 0xbe, 0xe1, 0x96, 0x27, 0xbe,
     0xb9, 0x81, 0x0d, 0xbd, 0xa2, 0x6b, 0xf3, 0xbd, 0xa0, 0xc4, 0x3f, 0x3c,
     0xdb, 0xf6, 0xd5, 0x3d, 0xa6, 0x82, 0x6f, 0x3e, 0x52, 0x9f, 0xfd, 0xbd,
     0x7e, 0x28, 0xd7, 0xbd, 0x78, 0xc4, 0x75, 0xbe, 0xe2, 0xdc, 0x75, 0xbe,
     0xc9, 0xc7, 0x71, 0xbe, 0x24, 0xec, 0xfd, 0x3d, 0x2f, 0xb6, 0x8a, 0x3e,
     0xb4, 0xde, 0x27, 0xbe, 0xce, 0x78, 0x38, 0xbe, 0xaa, 0x9d, 0x60, 0x3e,
     0x22, 0x0d, 0x28, 0x3e, 0xa7, 0xb3, 0x5b, 0xbe, 0xa4, 0xa2, 0x27, 0x3d,
     0x57, 0x96, 0x60, 0x3e, 0xd5, 0xf6, 0x4e, 0xbe, 0x64, 0xff, 0xd3, 0xbd,
     0x32, 0xf3, 0x48, 0xbe, 0xf3, 0x0e, 0x66, 0x3e, 0x72, 0xff, 0xff, 0xff,
     0x04, 0x00, 0x00, 0x00, 0x80, 0x00, 0x00, 0x00, 0x41, 0x03, 0x9d, 0x3e,
     0x28, 0x71, 0x03, 0x3f, 0x1c, 0x55, 0xd8, 0xbe, 0x9e, 0xa2, 0x09, 0x3f,
     0x62, 0x15, 0x36, 0x3f, 0xcf, 0x49, 0x72, 0xbe, 0xf8, 0xf3, 0xb9, 0xbe,
     0x1c, 0x0c, 0x95, 0xbd, 0x4a, 0xa1, 0xb6, 0x3e, 0x56, 0xb7, 0xfa, 0xbe,
     0x14, 0x4b, 0xb7, 0x3e, 0x35, 0x28, 0x3f, 0x3f, 0xf6, 0xc2, 0x1b, 0xbf,
     0x0f, 0x94, 0x55, 0x3f, 0x4f, 0xfc, 0x0e, 0x3f, 0xe0, 0x2a, 0xbe, 0xbe,
     0xa2, 0x1a, 0xa1, 0x3e, 0x4c, 0xf1, 0xfb, 0x3e, 0x57, 0x37, 0xdc, 0xbe,
     0x6b, 0xe2, 0xb6, 0x3e, 0x5e, 0x31, 0x31, 0x3f, 0x7d, 0xf6, 0xb6, 0xbe,
     0xe8, 0xdf, 0x80, 0xbe, 0x1e, 0x35, 0xc7, 0x3e, 0x85, 0xdd, 0xe4, 0xbe,
     0x32, 0x2e, 0xac, 0xbd, 0xc0, 0x14, 0xa2, 0xbe, 0xb1, 0x83, 0x43, 0x3f,
     0x98, 0x99, 0xcb, 0x3e, 0x80, 0xdf, 0xe1, 0x3e, 0xba, 0x00, 0x3a, 0x3f,
     0xcb, 0x39, 0x78, 0xbe, 0x00, 0x00, 0x06, 0x00, 0x08, 0x00, 0x04, 0x00,
     0x06, 0x00, 0x00, 0x00, 0x04, 0x00, 0x00, 0x00, 0x80, 0x00, 0x00, 0x00,
     0xe7, 0x00, 0xe1, 0x3e, 0xfd, 0x4f, 0x5a, 0x3f, 0x4a, 0x64, 0xa6, 0x3e,
     0xb4, 0xa8, 0xb9, 0x3e, 0xf4, 0x1a, 0xe7, 0x3e, 0x0c, 0x00, 0x87, 0x3e,
     0xb1, 0xac, 0x16, 0xbe, 0xce, 0xfc, 0xc2, 0xbe, 0x54, 0xe7, 0x59, 0x3e,
     0x3c, 0xe6, 0xb8, 0xbe, 0x5f, 0x20, 0x9b, 0x3e, 0xe4, 0x5a, 0xa2, 0xbe,
     0x5a, 0x2d, 0x5d, 0x3e, 0x7c, 0xc6, 0x99, 0x3e, 0x7f, 0x77, 0xa9, 0x3e,
     0x6a, 0x9d, 0x64, 0x3e, 0x1f, 0xce, 0x00, 0x3e, 0x52, 0x24, 0xf5, 0xbe,
     0x5c, 0xe0, 0x32, 0x3e, 0xf4, 0x78, 0xa8, 0x3e, 0xf8, 0x68, 0xb9, 0x3d,
     0x7b, 0xf2, 0x39, 0xbe, 0x9b, 0x85, 0xe0, 0xbe, 0x21, 0x30, 0x73, 0x3e,
     0xbb, 0xf1, 0xcb, 0x3d, 0x3b, 0x63, 0x37, 0xbe, 0x48, 0xb4, 0x09, 0xbe,
     0xbe, 0x63, 0x36, 0xbe, 0x90, 0xeb, 0xc6, 0xbe, 0x5c, 0xa9, 0xa2, 0x3e,
     0x32, 0x65, 0xa5, 0x3e, 0x26, 0x70, 0x9c, 0xbb, 0x80, 0xfa, 0xff, 0xff,
     0x84, 0xfa, 0xff, 0xff, 0x0f, 0x00, 0x00, 0x00, 0x4d, 0x4c, 0x49, 0x52,
     0x20, 0x43, 0x6f, 0x6e, 0x76, 0x65, 0x72, 0x74, 0x65, 0x64, 0x2e, 0x00,
     0x01, 0x00, 0x00, 0x00, 0x14, 0x00, 0x00, 0x00, 0x00, 0x00, 0x0e, 0x00,
     0x18, 0x00, 0x14, 0x00, 0x10, 0x00, 0x0c, 0x00, 0x08, 0x00, 0x04, 0x00,
     0x0e, 0x00, 0x00, 0x00, 0x14, 0x00, 0x00, 0x00, 0x1c, 0x00, 0x00, 0x00,
     0x0c, 0x01, 0x00, 0x00, 0x10, 0x01, 0x00, 0x00, 0x14, 0x01, 0x00, 0x00,
     0x04, 0x00, 0x00, 0x00, 0x6d, 0x61, 0x69, 0x6e, 0x00, 0x00, 0x00, 0x00,
     0x04, 0x00, 0x00, 0x00, 0xc0, 0x00, 0x00, 0x00, 0x70, 0x00, 0x00, 0x00,
     0x38, 0x00, 0x00, 0x00, 0x04, 0x00, 0x00, 0x00, 0x5e, 0xff, 0xff, 0xff,
     0x10, 0x00, 0x00, 0x00, 0x00, 0x00, 0x00, 0x08, 0x0c, 0x00, 0x00, 0x00,
     0x10, 0x00, 0x00, 0x00, 0x00, 0xfb, 0xff, 0xff, 0x01, 0x00, 0x00, 0x00,
     0x0b, 0x00, 0x00, 0x00, 0x03, 0x00, 0x00, 0x00, 0x0a, 0x00, 0x00, 0x00,
     0x02, 0x00, 0x00, 0x00, 0x05, 0x00, 0x00, 0x00, 0x8e, 0xff, 0xff, 0xff,
     0x10, 0x00, 0x00, 0x00, 0x00, 0x00, 0x00, 0x08, 0x10, 0x00, 0x00, 0x00,
     0x14, 0x00, 0x00, 0x00, 0xca, 0xff, 0xff, 0xff, 0x00, 0x00, 0x00, 0x01,
     0x01, 0x00, 0x00, 0x00, 0x0a, 0x00, 0x00, 0x00, 0x03, 0x00, 0x00, 0x00,
     0x09, 0x00, 0x00, 0x00, 0x03, 0x00, 0x00, 0x00, 0x06, 0x00, 0x00, 0x00,
     0xc2, 0xff, 0xff, 0xff, 0x18, 0x00, 0x00, 0x00, 0x00, 0x00, 0x00, 0x08,
     0x18, 0x00, 0x00, 0x00, 0x1c, 0x00, 0x00, 0x00, 0x00, 0x00, 0x06, 0x00,
     0x08, 0x00, 0x07, 0x00, 0x06, 0x00, 0x00, 0x00, 0x00, 0x00, 0x00, 0x01,
     0x01, 0x00, 0x00, 0x00, 0x09, 0x00, 0x00, 0x00, 0x03, 0x00, 0x00, 0x00,
     0x08, 0x00, 0x00, 0x00, 0x04, 0x00, 0x00, 0x00, 0x01, 0x00, 0x00, 0x00,
     0x00, 0x00, 0x0e, 0x00, 0x14, 0x00, 0x00, 0x00, 0x10, 0x00, 0x0c, 0x00,
     0x0b, 0x00, 0x04, 0x00, 0x0e, 0x00, 0x00, 0x00, 0x10, 0x00, 0x00, 0x00,
     0x00, 0x00, 0x00, 0x08, 0x0c, 0x00, 0x00, 0x00, 0x10, 0x00, 0x00, 0x00,
     0xb0, 0xfb, 0xff, 0xff, 0x01, 0x00, 0x00, 0x00, 0x08, 0x00, 0x00, 0x00,
     0x03, 0x00, 0x00, 0x00, 0x00, 0x00, 0x00, 0x00, 0x07, 0x00, 0x00, 0x00,
     0xff, 0xff, 0xff, 0xff, 0x01, 0x00, 0x00, 0x00, 0x0b, 0x00, 0x00, 0x00,
     0x01, 0x00, 0x00, 0x00, 0x00, 0x00, 0x00, 0x00, 0x0c, 0x00, 0x00, 0x00,
     0xf8, 0x03, 0x00, 0x00, 0xa4, 0x03, 0x00, 0x00, 0x4c, 0x03, 0x00, 0x00,
     0x0c, 0x03, 0x00, 0x00, 0xcc, 0x02, 0x00, 0x00, 0x90, 0x02, 0x00, 0x00,
     0x54, 0x02, 0x00, 0x00, 0x08, 0x02, 0x00, 0x00, 0xa8, 0x01, 0x00, 0x00,
     0xf8, 0x00, 0x00, 0x00, 0x60, 0x00, 0x00, 0x00, 0x04, 0x00, 0x00, 0x00,
     0x4e, 0xfc, 0xff, 0xff, 0x00, 0x00, 0x00, 0x01, 0x14, 0x00, 0x00, 0x00,
     0x1c, 0x00, 0x00, 0x00, 0x1c, 0x00, 0x00, 0x00, 0x0c, 0x00, 0x00, 0x00,
     0x34, 0x00, 0x00, 0x00, 0x02, 0x00, 0x00, 0x00, 0xff, 0xff, 0xff, 0xff,
     0x01, 0x00, 0x00, 0x00, 0x38, 0xfc, 0xff, 0xff, 0x1b, 0x00, 0x00, 0x00,
     0x53, 0x74, 0x61, 0x74, 0x65, 0x66, 0x75, 0x6c, 0x50, 0x61, 0x72, 0x74,
     0x69, 0x74, 0x69, 0x6f, 0x6e, 0x65, 0x64, 0x43, 0x61, 0x6c, 0x6c, 0x5f,
     0x31, 0x3a, 0x30, 0x00, 0x02, 0x00, 0x00, 0x00, 0x01, 0x00, 0x00, 0x00,
     0x01, 0x00, 0x00, 0x00, 0xa6, 0xfc, 0xff, 0xff, 0x00, 0x00, 0x00, 0x01,
     0x14, 0x00, 0x00, 0x00, 0x1c, 0x00, 0x00, 0x00, 0x1c, 0x00, 0x00, 0x00,
     0x0b, 0x00, 0x00, 0x00, 0x70, 0x00, 0x00, 0x00, 0x02, 0x00, 0x00, 0x00,
     0xff, 0xff, 0xff, 0xff, 0x20, 0x00, 0x00, 0x00, 0x90, 0xfc, 0xff, 0xff,
     0x54, 0x00, 0x00, 0x00, 0x73, 0x65, 0x71, 0x75, 0x65, 0x6e, 0x74, 0x69,
     0x61, 0x6c, 0x5f, 0x31, 0x2f, 0x64, 0x65, 0x6e, 0x73, 0x65, 0x5f, 0x32,
     0x5f, 0x31, 0x2f, 0x4d, 0x61, 0x74, 0x4d, 0x75, 0x6c, 0x3b, 0x73, 0x65,
     0x71, 0x75, 0x65, 0x6e, 0x74, 0x69, 0x61, 0x6c, 0x5f, 0x31, 0x2f, 0x64,
     0x65, 0x6e, 0x73, 0x65, 0x5f, 0x32, 0x5f, 0x31, 0x2f, 0x52, 0x65, 0x6c,
     0x75, 0x3b, 0x73, 0x65, 0x71, 0x75, 0x65, 0x6e, 0x74, 0x69, 0x61, 0x6c,
     0x5f, 0x31, 0x2f, 0x64, 0x65, 0x6e, 0x73, 0x65, 0x5f, 0x32, 0x5f, 0x31,
     0x2f, 0x41, 0x64, 0x64, 0x00, 0x00, 0x00, 0x00, 0x02, 0x00, 0x00, 0x00,
     0x01, 0x00, 0x00, 0x00, 0x20, 0x00, 0x00, 0x00, 0x3a, 0xfd, 0xff, 0xff,
     0x00, 0x00, 0x00, 0x01, 0x14, 0x00, 0x00, 0x00, 0x1c, 0x00, 0x00, 0x00,
     0x1c, 0x00, 0x00, 0x00, 0x0a, 0x00, 0x00, 0x00, 0x88, 0x00, 0x00, 0x00,
     0x02, 0x00, 0x00, 0x00, 0xff, 0xff, 0xff, 0xff, 0x20, 0x00, 0x00, 0x00,
     0x24, 0xfd, 0xff, 0xff, 0x6d, 0x00, 0x00, 0x00, 0x73, 0x65, 0x71, 0x75,
     0x65, 0x6e, 0x74, 0x69, 0x61, 0x6c, 0x5f, 0x31, 0x2f, 0x64, 0x65, 0x6e,
     0x73, 0x65, 0x5f, 0x31, 0x2f, 0x41, 0x64, 0x64, 0x3b, 0x73, 0x65, 0x71,
     0x75, 0x65, 0x6e, 0x74, 0x69, 0x61, 0x6c, 0x5f, 0x31, 0x2f, 0x64, 0x65,
     0x6e, 0x73, 0x65, 0x5f, 0x31, 0x5f, 0x32, 0x2f, 0x4d, 0x61, 0x74, 0x4d,
     0x75, 0x6c, 0x3b, 0x73, 0x65, 0x71, 0x75, 0x65, 0x6e, 0x74, 0x69, 0x61,
     0x6c, 0x5f, 0x31, 0x2f, 0x64, 0x65, 0x6e, 0x73, 0x65, 0x5f, 0x31, 0x5f,
     0x32, 0x2f, 0x52, 0x65, 0x6c, 0x75, 0x3b, 0x73, 0x65, 0x71, 0x75, 0x65,
     0x6e, 0x74, 0x69, 0x61, 0x6c, 0x5f, 0x31, 0x2f, 0x64, 0x65, 0x6e, 0x73,
     0x65, 0x5f, 0x31, 0x5f, 0x32, 0x2f, 0x41, 0x64, 0x64, 0x00, 0x00, 0x00,
     0x02, 0x00, 0x00, 0x00, 0x01, 0x00, 0x00, 0x00, 0x20, 0x00, 0x00, 0x00,
     0xe6, 0xfd, 0xff, 0xff, 0x00, 0x00, 0x00, 0x01, 0x14, 0x00, 0x00, 0x00,
     0x1c, 0x00, 0x00, 0x00, 0x1c, 0x00, 0x00, 0x00, 0x09, 0x00, 0x00, 0x00,
     0x38, 0x00, 0x00, 0x00, 0x02, 0x00, 0x00, 0x00, 0xff, 0xff, 0xff, 0xff,
     0x01, 0x00, 0x00, 0x00, 0xd0, 0xfd, 0xff, 0xff, 0x1c, 0x00, 0x00, 0x00,
     0x73, 0x65, 0x71, 0x75, 0x65, 0x6e, 0x74, 0x69, 0x61, 0x6c, 0x5f, 0x31,
     0x2f, 0x64, 0x65, 0x6e, 0x73, 0x65, 0x5f, 0x31, 0x2f, 0x4d, 0x61, 0x74,
     0x4d, 0x75, 0x6c, 0x31, 0x00, 0x00, 0x00, 0x00, 0x02, 0x00, 0x00, 0x00,
     0x01, 0x00, 0x00, 0x00, 0x01, 0x00, 0x00, 0x00, 0x92, 0xfe, 0xff, 0xff,
     0x00, 0x00, 0x00, 0x01, 0x10, 0x00, 0x00, 0x00, 0x10, 0x00, 0x00, 0x00,
     0x08, 0x00, 0x00, 0x00, 0x28, 0x00, 0x00, 0x00, 0x1c, 0xfe, 0xff, 0xff,
     0x1b, 0x00, 0x00, 0x00, 0x73, 0x65, 0x71, 0x75, 0x65, 0x6e, 0x74, 0x69,
     0x61, 0x6c, 0x5f, 0x31, 0x2f, 0x64, 0x65, 0x6e, 0x73, 0x65, 0x5f, 0x31,
     0x2f, 0x4d, 0x61, 0x74, 0x4d, 0x75, 0x6c, 0x00, 0x02, 0x00, 0x00, 0x00,
     0x01, 0x00, 0x00, 0x00, 0x01, 0x00, 0x00, 0x00, 0xda, 0xfe, 0xff, 0xff,
     0x00, 0x00, 0x00, 0x01, 0x10, 0x00, 0x00, 0x00, 0x10, 0x00, 0x00, 0x00,
     0x07, 0x00, 0x00, 0x00, 0x1c, 0x00, 0x00, 0x00, 0x64, 0xfe, 0xff, 0xff,
     0x0f, 0x00, 0x00, 0x00, 0x61, 0x72, 0x69, 0x74, 0x68, 0x2e, 0x63, 0x6f,
     0x6e, 0x73, 0x74, 0x61, 0x6e, 0x74, 0x35, 0x00, 0x01, 0x00, 0x00, 0x00,
     0x20, 0x00, 0x00, 0x00, 0x12, 0xff, 0xff, 0xff, 0x00, 0x00, 0x00, 0x01,
     0x10, 0x00, 0x00, 0x00, 0x10, 0x00, 0x00, 0x00, 0x06, 0x00, 0x00, 0x00,
     0x1c, 0x00, 0x00, 0x00, 0x9c, 0xfe, 0xff, 0xff, 0x0f, 0x00, 0x00, 0x00,
     0x61, 0x72, 0x69, 0x74, 0x68, 0x2e, 0x63, 0x6f, 0x6e, 0x73, 0x74, 0x61,
     0x6e, 0x74, 0x34, 0x00, 0x01, 0x00, 0x00, 0x00, 0x01, 0x00, 0x00, 0x00,
     0x4a, 0xff, 0xff, 0xff, 0x00, 0x00, 0x00, 0x01, 0x10, 0x00, 0x00, 0x00,
     0x10, 0x00, 0x00, 0x00, 0x05, 0x00, 0x00, 0x00, 0x1c, 0x00, 0x00, 0x00,
     0xd4, 0xfe, 0xff, 0xff, 0x0f, 0x00, 0x00, 0x00, 0x61, 0x72, 0x69, 0x74,
     0x68, 0x2e, 0x63, 0x6f, 0x6e, 0x73, 0x74, 0x61, 0x6e, 0x74, 0x33, 0x00,
     0x02, 0x00, 0x00, 0x00, 0x20, 0x00, 0x00, 0x00, 0x01, 0x00, 0x00, 0x00,
     0x86, 0xff, 0xff, 0xff, 0x00, 0x00, 0x00, 0x01, 0x10, 0x00, 0x00, 0x00,
     0x10, 0x00, 0x00, 0x00, 0x04, 0x00, 0x00, 0x00, 0x1c, 0x00, 0x00, 0x00,
     0x10, 0xff, 0xff, 0xff, 0x0f, 0x00, 0x00, 0x00, 0x61, 0x72, 0x69, 0x74,
     0x68, 0x2e, 0x63, 0x6f, 0x6e, 0x73, 0x74, 0x61, 0x6e, 0x74, 0x32, 0x00,
     0x02, 0x00, 0x00, 0x00, 0x20, 0x00, 0x00, 0x00, 0x20, 0x00, 0x00, 0x00,
     0xc2, 0xff, 0xff, 0xff, 0x00, 0x00, 0x00, 0x01, 0x10, 0x00, 0x00, 0x00,
     0x10, 0x00, 0x00, 0x00, 0x03, 0x00, 0x00, 0x00, 0x1c, 0x00, 0x00, 0x00,
     0x4c, 0xff, 0xff, 0xff, 0x0f, 0x00, 0x00, 0x00, 0x61, 0x72, 0x69, 0x74,
     0x68, 0x2e, 0x63, 0x6f, 0x6e, 0x73, 0x74, 0x61, 0x6e, 0x74, 0x31, 0x00,
     0x02, 0x00, 0x00, 0x00, 0x01, 0x00, 0x00, 0x00, 0x20, 0x00, 0x00, 0x00,
     0x00, 0x00, 0x16, 0x00, 0x18, 0x00, 0x14, 0x00, 0x00, 0x00, 0x10, 0x00,
     0x0c, 0x00, 0x08, 0x00, 0x00, 0x00, 0x00, 0x00, 0x00, 0x00, 0x07, 0x00,
     0x16, 0x00, 0x00, 0x00, 0x00, 0x00, 0x00, 0x01, 0x10, 0x00, 0x00, 0x00,
     0x10, 0x00, 0x00, 0x00, 0x02, 0x00, 0x00, 0x00, 0x1c, 0x00, 0x00, 0x00,
     0xa0, 0xff, 0xff, 0xff, 0x0e, 0x00, 0x00, 0x00, 0x61, 0x72, 0x69, 0x74,
     0x68, 0x2e, 0x63, 0x6f, 0x6e, 0x73, 0x74, 0x61, 0x6e, 0x74, 0x00, 0x00,
     0x01, 0x00, 0x00, 0x00, 0x20, 0x00, 0x00, 0x00, 0x00, 0x00, 0x16, 0x00,
     0x1c, 0x00, 0x18, 0x00, 0x00, 0x00, 0x14, 0x00, 0x10, 0x00, 0x0c, 0x00,
     0x00, 0x00, 0x00, 0x00, 0x08, 0x00, 0x07, 0x00, 0x16, 0x00, 0x00, 0x00,
     0x00, 0x00, 0x00, 0x01, 0x14, 0x00, 0x00, 0x00, 0x20, 0x00, 0x00, 0x00,
     0x20, 0x00, 0x00, 0x00, 0x01, 0x00, 0x00, 0x00, 0x3c, 0x00, 0x00, 0x00,
     0x02, 0x00, 0x00, 0x00, 0xff, 0xff, 0xff, 0xff, 0x01, 0x00, 0x00, 0x00,
     0x04, 0x00, 0x04, 0x00, 0x04, 0x00, 0x00, 0x00, 0x1e, 0x00, 0x00, 0x00,
     0x73, 0x65, 0x72, 0x76, 0x69, 0x6e, 0x67, 0x5f, 0x64, 0x65, 0x66, 0x61,
     0x75, 0x6c, 0x74, 0x5f, 0x6b, 0x65, 0x72, 0x61, 0x73, 0x5f, 0x74, 0x65,
     0x6e, 0x73, 0x6f, 0x72, 0x3a, 0x30, 0x00, 0x00, 0x02, 0x00, 0x00, 0x00,
     0x01, 0x00, 0x00, 0x00, 0x01, 0x00, 0x00, 0x00, 0x01, 0x00, 0x00, 0x00,
     0x10, 0x00, 0x00, 0x00, 0x0c, 0x00, 0x0c, 0x00, 0x0b, 0x00, 0x00, 0x00,
     0x00, 0x00, 0x04, 0x00, 0x0c, 0x00, 0x00, 0x00, 0x09, 0x00, 0x00, 0x00,
     0x00, 0x00, 0x00, 0x09
};
